/* Copyright 2020 The TensorFlow Authors. All Rights Reserved.

Licensed under the Apache License, Version 2.0 (the "License");
you may not use this file except in compliance with the License.
You may obtain a copy of the License at

    http://www.apache.org/licenses/LICENSE-2.0

Unless required by applicable law or agreed to in writing, software
distributed under the License is distributed on an "AS IS" BASIS,
WITHOUT WARRANTIES OR CONDITIONS OF ANY KIND, either express or implied.
See the License for the specific language governing permissions and
limitations under the License.
==============================================================================*/

// Automatically created from a TensorFlow Lite flatbuffer using the command:
// xxd -i model.tflite > model.cc

// This is a standard TensorFlow Lite model file that has been converted into a
// C data array, so it can be easily compiled into a binary for devices that
// don't have a file system.

// See train/README.md for a full description of the creation process.

#include "model.h"

// Keep model aligned to 8 bytes to guarantee aligned 64-bit accesses.
alignas(8) const unsigned char g_model[] = {
  0x1c, 0x00, 0x00, 0x00, 0x54, 0x46, 0x4c, 0x33, 0x14, 0x00, 0x20, 0x00,
  0x1c, 0x00, 0x18, 0x00, 0x14, 0x00, 0x10, 0x00, 0x0c, 0x00, 0x00, 0x00,
  0x08, 0x00, 0x04, 0x00, 0x14, 0x00, 0x00, 0x00, 0x1c, 0x00, 0x00, 0x00,
  0x94, 0x00, 0x00, 0x00, 0xec, 0x00, 0x00, 0x00, 0xc0, 0x04, 0x00, 0x00,
  0xd0, 0x04, 0x00, 0x00, 0x38, 0x09, 0x00, 0x00, 0x03, 0x00, 0x00, 0x00,
  0x01, 0x00, 0x00, 0x00, 0x10, 0x00, 0x00, 0x00, 0x00, 0x00, 0x0a, 0x00,
  0x10, 0x00, 0x0c, 0x00, 0x08, 0x00, 0x04, 0x00, 0x0a, 0x00, 0x00, 0x00,
  0x0c, 0x00, 0x00, 0x00, 0x1c, 0x00, 0x00, 0x00, 0x38, 0x00, 0x00, 0x00,
  0x0f, 0x00, 0x00, 0x00, 0x73, 0x65, 0x72, 0x76, 0x69, 0x6e, 0x67, 0x5f,
  0x64, 0x65, 0x66, 0x61, 0x75, 0x6c, 0x74, 0x00, 0x01, 0x00, 0x00, 0x00,
  0x04, 0x00, 0x00, 0x00, 0x94, 0xff, 0xff, 0xff, 0x07, 0x00, 0x00, 0x00,
  0x04, 0x00, 0x00, 0x00, 0x07, 0x00, 0x00, 0x00, 0x64, 0x65, 0x6e, 0x73,
  0x65, 0x5f, 0x33, 0x00, 0x01, 0x00, 0x00, 0x00, 0x04, 0x00, 0x00, 0x00,
  0x26, 0xfb, 0xff, 0xff, 0x04, 0x00, 0x00, 0x00, 0x0d, 0x00, 0x00, 0x00,
  0x64, 0x65, 0x6e, 0x73, 0x65, 0x5f, 0x32, 0x5f, 0x69, 0x6e, 0x70, 0x75,
  0x74, 0x00, 0x00, 0x00, 0x02, 0x00, 0x00, 0x00, 0x34, 0x00, 0x00, 0x00,
  0x04, 0x00, 0x00, 0x00, 0xdc, 0xff, 0xff, 0xff, 0x0a, 0x00, 0x00, 0x00,
  0x04, 0x00, 0x00, 0x00, 0x13, 0x00, 0x00, 0x00, 0x43, 0x4f, 0x4e, 0x56,
  0x45, 0x52, 0x53, 0x49, 0x4f, 0x4e, 0x5f, 0x4d, 0x45, 0x54, 0x41, 0x44,
  0x41, 0x54, 0x41, 0x00, 0x08, 0x00, 0x0c, 0x00, 0x08, 0x00, 0x04, 0x00,
  0x08, 0x00, 0x00, 0x00, 0x09, 0x00, 0x00, 0x00, 0x04, 0x00, 0x00, 0x00,
  0x13, 0x00, 0x00, 0x00, 0x6d, 0x69, 0x6e, 0x5f, 0x72, 0x75, 0x6e, 0x74,
  0x69, 0x6d, 0x65, 0x5f, 0x76, 0x65, 0x72, 0x73, 0x69, 0x6f, 0x6e, 0x00,
  0x0b, 0x00, 0x00, 0x00, 0xd0, 0x03, 0x00, 0x00, 0xc8, 0x03, 0x00, 0x00,
  0xb0, 0x03, 0x00, 0x00, 0x80, 0x03, 0x00, 0x00, 0xf0, 0x00, 0x00, 0x00,
  0xa0, 0x00, 0x00, 0x00, 0x98, 0x00, 0x00, 0x00, 0x90, 0x00, 0x00, 0x00,
  0x88, 0x00, 0x00, 0x00, 0x68, 0x00, 0x00, 0x00, 0x04, 0x00, 0x00, 0x00,
  0xce, 0xfb, 0xff, 0xff, 0x04, 0x00, 0x00, 0x00, 0x54, 0x00, 0x00, 0x00,
  0x0c, 0x00, 0x00, 0x00, 0x08, 0x00, 0x0e, 0x00, 0x08, 0x00, 0x04, 0x00,
  0x08, 0x00, 0x00, 0x00, 0x10, 0x00, 0x00, 0x00, 0x24, 0x00, 0x00, 0x00,
  0x00, 0x00, 0x06, 0x00, 0x08, 0x00, 0x04, 0x00, 0x06, 0x00, 0x00, 0x00,
  0x04, 0x00, 0x00, 0x00, 0x00, 0x00, 0x00, 0x00, 0x00, 0x00, 0x0a, 0x00,
  0x10, 0x00, 0x0c, 0x00, 0x08, 0x00, 0x04, 0x00, 0x0a, 0x00, 0x00, 0x00,
  0x02, 0x00, 0x00, 0x00, 0x02, 0x00, 0x00, 0x00, 0x04, 0x00, 0x00, 0x00,
  0x06, 0x00, 0x00, 0x00, 0x32, 0x2e, 0x31, 0x32, 0x2e, 0x30, 0x00, 0x00,
  0x2e, 0xfc, 0xff, 0xff, 0x04, 0x00, 0x00, 0x00, 0x10, 0x00, 0x00, 0x00,
  0x31, 0x2e, 0x35, 0x2e, 0x30, 0x00, 0x00, 0x00, 0x00, 0x00, 0x00, 0x00,
  0x00, 0x00, 0x00, 0x00, 0x8c, 0xf8, 0xff, 0xff, 0x90, 0xf8, 0xff, 0xff,
  0x94, 0xf8, 0xff, 0xff, 0x56, 0xfc, 0xff, 0xff, 0x04, 0x00, 0x00, 0x00,
  0x40, 0x00, 0x00, 0x00, 0xfc, 0x05, 0x12, 0xc0, 0x4c, 0xb1, 0x36, 0xc0,
  0x25, 0x19, 0xbd, 0x3f, 0xef, 0x2f, 0x99, 0xbf, 0x1e, 0xdf, 0x28, 0xc0,
  0x73, 0x86, 0x14, 0x40, 0x93, 0x4e, 0x8b, 0xbf, 0x73, 0xbf, 0x1d, 0xc0,
  0x22, 0xfe, 0x3a, 0x40, 0xd8, 0xf9, 0x1c, 0x40, 0x55, 0x5e, 0xfa, 0xbf,
  0xdb, 0x79, 0x36, 0x40, 0xf3, 0x8e, 0xdb, 0x3f, 0xfc, 0x4c, 0xde, 0xbf,
  0xf0, 0xf2, 0x06, 0x40, 0x72, 0x43, 0x96, 0x3f, 0xa2, 0xfc, 0xff, 0xff,
  0x04, 0x00, 0x00, 0x00, 0x80, 0x02, 0x00, 0x00, 0xe0, 0x32, 0xfb, 0xbe,
  0xf9, 0x6b, 0xd2, 0x3e, 0xd3, 0x54, 0xcb, 0x3f, 0xe7, 0xe9, 0xfa, 0xbc,
  0x9a, 0xc8, 0x1a, 0xbf, 0x0e, 0x71, 0x4c, 0xbf, 0xef, 0x70, 0x4b, 0x3f,
  0xfc, 0xe3, 0x13, 0xbe, 0x0f, 0x1c, 0xe1, 0xbe, 0x9e, 0x19, 0xca, 0xbf,
  0xff, 0xe0, 0xa2, 0x3d, 0x15, 0xdc, 0xa1, 0x3f, 0x26, 0x47, 0xbc, 0xbf,
  0x8f, 0xd0, 0xd8, 0xbe, 0xb6, 0xbe, 0xcf, 0x3f, 0xcf, 0x18, 0x8f, 0xbf,
  0xba, 0x0f, 0xac, 0xbf, 0x6f, 0xd7, 0x2f, 0x40, 0x83, 0x27, 0x7c, 0x3f,
  0xca, 0xb5, 0x04, 0x3e, 0x59, 0xaa, 0x56, 0xbf, 0x0d, 0xc7, 0x83, 0xbf,
  0x5d, 0x0f, 0x4a, 0x3f, 0x4b, 0x12, 0x72, 0x3f, 0x25, 0xd6, 0xeb, 0x3e,
  0x3b, 0x98, 0xc0, 0xbf, 0x5c, 0x7d, 0x53, 0xbf, 0xdc, 0x82, 0xab, 0x3f,
  0x34, 0x8f, 0x0e, 0xbd, 0x1c, 0x96, 0xde, 0xbf, 0xb1, 0xb9, 0xe4, 0x3e,
  0x5f, 0xd2, 0x91, 0x3f, 0xd5, 0x21, 0x18, 0x3e, 0x73, 0xc9, 0x47, 0xbf,
  0x08, 0xc6, 0x98, 0x3e, 0xf0, 0xc5, 0xbe, 0x3f, 0x8a, 0xe2, 0xf8, 0xbf,
  0xb5, 0x8f, 0x9f, 0x3e, 0x82, 0xaa, 0x4c, 0x3f, 0x58, 0x6b, 0x25, 0x40,
  0x43, 0xd2, 0xb5, 0xbf, 0xb5, 0x2e, 0xb2, 0xbf, 0x6f, 0xe4, 0x98, 0x3d,
  0x4c, 0xf6, 0xd6, 0x3e, 0xe9, 0x0a, 0x87, 0xbd, 0x63, 0x5e, 0x04, 0xbe,
  0xb4, 0xc9, 0xb8, 0xbe, 0xd3, 0xb3, 0x99, 0x3e, 0xae, 0xf5, 0xcc, 0xbe,
  0xde, 0x9f, 0x9f, 0xbe, 0x61, 0x01, 0x83, 0x3e, 0xb0, 0xd0, 0x45, 0x3e,
  0xe1, 0x6e, 0x81, 0xbe, 0x6b, 0xc4, 0xd5, 0xbd, 0x21, 0x1b, 0x5a, 0xbe,
  0x37, 0xe4, 0xd4, 0xbd, 0xc4, 0x87, 0x0e, 0xbf, 0xc7, 0x39, 0x20, 0xbf,
  0xc5, 0x48, 0xdb, 0xbf, 0x37, 0xdc, 0xc3, 0xbf, 0xde, 0x53, 0x65, 0x3f,
  0x3a, 0xb0, 0x13, 0x3f, 0xb4, 0x73, 0xf5, 0xbe, 0x53, 0xa8, 0xea, 0xbf,
  0xee, 0x8b, 0x37, 0x3c, 0xa1, 0xbd, 0xb8, 0x3f, 0x45, 0x47, 0xc4, 0xbe,
  0xda, 0xde, 0xcc, 0xbc, 0xa5, 0xb2, 0xe5, 0x3d, 0x7e, 0xe2, 0xfb, 0xbe,
  0x26, 0xbc, 0x36, 0xbc, 0x66, 0xea, 0x28, 0x3e, 0x0b, 0xc5, 0x86, 0x3f,
  0x73, 0xe0, 0xa3, 0x3e, 0x7c, 0xca, 0xc4, 0xbf, 0x29, 0x8d, 0x2a, 0x3d,
  0x8b, 0xf0, 0xf1, 0x3f, 0xf1, 0xa4, 0xdf, 0xbe, 0x55, 0x84, 0x15, 0xbf,
  0x3d, 0x72, 0x03, 0x40, 0xd9, 0xe0, 0x0e, 0x3f, 0xd5, 0xdc, 0x75, 0xbe,
  0x35, 0x20, 0x1b, 0x3f, 0x8b, 0x3a, 0x9c, 0xbf, 0x10, 0x1c, 0x29, 0xbf,
  0xa1, 0x5d, 0x70, 0x3f, 0x49, 0x51, 0x12, 0x3e, 0x61, 0x24, 0xf4, 0xbe,
  0x88, 0x11, 0xf2, 0xbe, 0x35, 0xe4, 0x20, 0x3f, 0x75, 0xba, 0x00, 0x40,
  0x78, 0xcb, 0x5b, 0xbf, 0x34, 0x0d, 0xa7, 0xbf, 0x1d, 0x52, 0xaa, 0x3f,
  0xf7, 0xd8, 0x06, 0x3d, 0x8c, 0xd6, 0x0b, 0xbf, 0xa7, 0x37, 0xc3, 0x3e,
  0xd2, 0xe8, 0x15, 0x3f, 0xc7, 0x7e, 0x58, 0x40, 0xbf, 0x1c, 0xd0, 0xbf,
  0x51, 0xd8, 0x48, 0xbf, 0x2e, 0x8d, 0x5b, 0xbf, 0x5e, 0xa9, 0xca, 0x3e,
  0xea, 0x94, 0x23, 0x3f, 0xca, 0x5d, 0x08, 0x3c, 0x4a, 0x4d, 0xda, 0xbd,
  0xf2, 0x9e, 0x03, 0x3c, 0xec, 0x47, 0xac, 0xbc, 0x1a, 0x94, 0x9f, 0x3d,
  0x4a, 0x4e, 0x27, 0xbd, 0x50, 0xcd, 0x93, 0x3e, 0xa1, 0x08, 0xa7, 0x3e,
  0x5c, 0xd9, 0x07, 0xbf, 0x75, 0xc5, 0xfb, 0xbe, 0x49, 0x5a, 0x0e, 0xbf,
  0x86, 0x63, 0x91, 0xbe, 0x64, 0xd6, 0x71, 0xbf, 0xf7, 0x09, 0x79, 0xbf,
  0xc3, 0x20, 0x71, 0xbf, 0x02, 0xed, 0xe1, 0xbf, 0x45, 0x52, 0x7b, 0x3e,
  0x15, 0xcd, 0x84, 0x3d, 0x4f, 0xfe, 0x35, 0xbf, 0x61, 0xee, 0xb0, 0x3f,
  0x2c, 0x48, 0x84, 0x3f, 0x99, 0xde, 0x22, 0xbc, 0x3a, 0x3e, 0x3b, 0xbf,
  0x04, 0x6d, 0x0f, 0xbf, 0x86, 0x73, 0x95, 0x3f, 0x55, 0x79, 0xa5, 0x3f,
  0xb1, 0xda, 0xda, 0xbe, 0xee, 0xd6, 0xb2, 0xbf, 0xee, 0xa6, 0xb7, 0xbe,
  0x56, 0x60, 0x29, 0x3f, 0xc6, 0x3d, 0x16, 0x3b, 0x31, 0xc6, 0xbe, 0x3e,
  0x98, 0x02, 0x81, 0xbf, 0x65, 0xed, 0x95, 0xbf, 0xb4, 0x66, 0xb5, 0x3f,
  0xab, 0x10, 0x3a, 0xbe, 0x26, 0x96, 0x33, 0x3f, 0x8c, 0xa8, 0xd6, 0x3f,
  0x74, 0xeb, 0xad, 0xbf, 0x7f, 0xaf, 0x40, 0xbe, 0x8b, 0xd8, 0x93, 0x3e,
  0xd7, 0xb5, 0x86, 0x3f, 0x2f, 0xd4, 0x5c, 0xbe, 0x86, 0x21, 0xa0, 0xbf,
  0x63, 0x6f, 0x2b, 0x3f, 0x74, 0x8e, 0xa6, 0xbd, 0xde, 0xad, 0xc7, 0xbf,
  0x14, 0x59, 0xc8, 0x3e, 0xc0, 0xde, 0x89, 0x3f, 0xfc, 0xa7, 0x47, 0xbe,
  0x99, 0x0e, 0xb3, 0xbf, 0xf8, 0x89, 0x11, 0x3e, 0xa0, 0x55, 0xc1, 0x3f,
  0x6a, 0xcf, 0x53, 0xbe, 0xbc, 0x9f, 0x98, 0xbf, 0x60, 0x33, 0xec, 0x3f,
  0x2e, 0xff, 0xff, 0xff, 0x04, 0x00, 0x00, 0x00, 0x20, 0x00, 0x00, 0x00,
  0xbc, 0x13, 0x06, 0xbd, 0x60, 0xff, 0x83, 0x3e, 0x46, 0x73, 0xdf, 0x3f,
  0x59, 0x10, 0xc6, 0x3e, 0x4a, 0x92, 0x1a, 0x3f, 0xf7, 0xeb, 0xbd, 0x3f,
  0x8a, 0x61, 0x15, 0x3f, 0xcf, 0x16, 0xb0, 0x3e, 0x5a, 0xff, 0xff, 0xff,
  0x04, 0x00, 0x00, 0x00, 0x08, 0x00, 0x00, 0x00, 0xe4, 0x75, 0x6d, 0x3f,
  0x59, 0x71, 0x72, 0xbf, 0xb0, 0xfb, 0xff, 0xff, 0xb4, 0xfb, 0xff, 0xff,
  0x0f, 0x00, 0x00, 0x00, 0x4d, 0x4c, 0x49, 0x52, 0x20, 0x43, 0x6f, 0x6e,
  0x76, 0x65, 0x72, 0x74, 0x65, 0x64, 0x2e, 0x00, 0x01, 0x00, 0x00, 0x00,
  0x14, 0x00, 0x00, 0x00, 0x00, 0x00, 0x0e, 0x00, 0x18, 0x00, 0x14, 0x00,
  0x10, 0x00, 0x0c, 0x00, 0x08, 0x00, 0x04, 0x00, 0x0e, 0x00, 0x00, 0x00,
  0x14, 0x00, 0x00, 0x00, 0x1c, 0x00, 0x00, 0x00, 0xec, 0x00, 0x00, 0x00,
  0xf0, 0x00, 0x00, 0x00, 0xf4, 0x00, 0x00, 0x00, 0x04, 0x00, 0x00, 0x00,
  0x6d, 0x61, 0x69, 0x6e, 0x00, 0x00, 0x00, 0x00, 0x03, 0x00, 0x00, 0x00,
  0x94, 0x00, 0x00, 0x00, 0x50, 0x00, 0x00, 0x00, 0x14, 0x00, 0x00, 0x00,
  0x00, 0x00, 0x0e, 0x00, 0x1a, 0x00, 0x14, 0x00, 0x10, 0x00, 0x0c, 0x00,
  0x0b, 0x00, 0x04, 0x00, 0x0e, 0x00, 0x00, 0x00, 0x1c, 0x00, 0x00, 0x00,
  0x00, 0x00, 0x00, 0x09, 0x1c, 0x00, 0x00, 0x00, 0x20, 0x00, 0x00, 0x00,
  0x01, 0x00, 0x00, 0x00, 0x00, 0x00, 0x06, 0x00, 0x08, 0x00, 0x04, 0x00,
  0x06, 0x00, 0x00, 0x00, 0x00, 0x00, 0x80, 0x3f, 0x01, 0x00, 0x00, 0x00,
  0x07, 0x00, 0x00, 0x00, 0x01, 0x00, 0x00, 0x00, 0x06, 0x00, 0x00, 0x00,
  0xce, 0xff, 0xff, 0xff, 0x10, 0x00, 0x00, 0x00, 0x00, 0x00, 0x00, 0x08,
  0x0c, 0x00, 0x00, 0x00, 0x10, 0x00, 0x00, 0x00, 0x74, 0xfc, 0xff, 0xff,
  0x01, 0x00, 0x00, 0x00, 0x06, 0x00, 0x00, 0x00, 0x03, 0x00, 0x00, 0x00,
  0x05, 0x00, 0x00, 0x00, 0x04, 0x00, 0x00, 0x00, 0x01, 0x00, 0x00, 0x00,
  0x00, 0x00, 0x0e, 0x00, 0x16, 0x00, 0x00, 0x00, 0x10, 0x00, 0x0c, 0x00,
  0x0b, 0x00, 0x04, 0x00, 0x0e, 0x00, 0x00, 0x00, 0x18, 0x00, 0x00, 0x00,
  0x00, 0x00, 0x00, 0x08, 0x18, 0x00, 0x00, 0x00, 0x1c, 0x00, 0x00, 0x00,
  0x00, 0x00, 0x06, 0x00, 0x08, 0x00, 0x07, 0x00, 0x06, 0x00, 0x00, 0x00,
  0x00, 0x00, 0x00, 0x01, 0x01, 0x00, 0x00, 0x00, 0x05, 0x00, 0x00, 0x00,
  0x03, 0x00, 0x00, 0x00, 0x00, 0x00, 0x00, 0x00, 0x03, 0x00, 0x00, 0x00,
  0x02, 0x00, 0x00, 0x00, 0x01, 0x00, 0x00, 0x00, 0x07, 0x00, 0x00, 0x00,
  0x01, 0x00, 0x00, 0x00, 0x00, 0x00, 0x00, 0x00, 0x08, 0x00, 0x00, 0x00,
  0xe8, 0x02, 0x00, 0x00, 0x78, 0x02, 0x00, 0x00, 0x08, 0x02, 0x00, 0x00,
  0xbc, 0x01, 0x00, 0x00, 0x70, 0x01, 0x00, 0x00, 0xdc, 0x00, 0x00, 0x00,
  0x60, 0x00, 0x00, 0x00, 0x04, 0x00, 0x00, 0x00, 0x4e, 0xfd, 0xff, 0xff,
  0x00, 0x00, 0x00, 0x01, 0x14, 0x00, 0x00, 0x00, 0x1c, 0x00, 0x00, 0x00,
  0x1c, 0x00, 0x00, 0x00, 0x08, 0x00, 0x00, 0x00, 0x34, 0x00, 0x00, 0x00,
  0x02, 0x00, 0x00, 0x00, 0xff, 0xff, 0xff, 0xff, 0x02, 0x00, 0x00, 0x00,
  0x38, 0xfd, 0xff, 0xff, 0x19, 0x00, 0x00, 0x00, 0x53, 0x74, 0x61, 0x74,
  0x65, 0x66, 0x75, 0x6c, 0x50, 0x61, 0x72, 0x74, 0x69, 0x74, 0x69, 0x6f,
  0x6e, 0x65, 0x64, 0x43, 0x61, 0x6c, 0x6c, 0x3a, 0x30, 0x00, 0x00, 0x00,
  0x02, 0x00, 0x00, 0x00, 0x01, 0x00, 0x00, 0x00, 0x02, 0x00, 0x00, 0x00,
  0xa6, 0xfd, 0xff, 0xff, 0x00, 0x00, 0x00, 0x01, 0x14, 0x00, 0x00, 0x00,
  0x1c, 0x00, 0x00, 0x00, 0x1c, 0x00, 0x00, 0x00, 0x07, 0x00, 0x00, 0x00,
  0x54, 0x00, 0x00, 0x00, 0x02, 0x00, 0x00, 0x00, 0xff, 0xff, 0xff, 0xff,
  0x02, 0x00, 0x00, 0x00, 0x90, 0xfd, 0xff, 0xff, 0x38, 0x00, 0x00, 0x00,
  0x73, 0x65, 0x71, 0x75, 0x65, 0x6e, 0x74, 0x69, 0x61, 0x6c, 0x5f, 0x31,
  0x2f, 0x64, 0x65, 0x6e, 0x73, 0x65, 0x5f, 0x33, 0x2f, 0x4d, 0x61, 0x74,
  0x4d, 0x75, 0x6c, 0x3b, 0x73, 0x65, 0x71, 0x75, 0x65, 0x6e, 0x74, 0x69,
  0x61, 0x6c, 0x5f, 0x31, 0x2f, 0x64, 0x65, 0x6e, 0x73, 0x65, 0x5f, 0x33,
  0x2f, 0x42, 0x69, 0x61, 0x73, 0x41, 0x64, 0x64, 0x00, 0x00, 0x00, 0x00,
  0x02, 0x00, 0x00, 0x00, 0x01, 0x00, 0x00, 0x00, 0x02, 0x00, 0x00, 0x00,
  0x1e, 0xfe, 0xff, 0xff, 0x00, 0x00, 0x00, 0x01, 0x14, 0x00, 0x00, 0x00,
  0x1c, 0x00, 0x00, 0x00, 0x1c, 0x00, 0x00, 0x00, 0x06, 0x00, 0x00, 0x00,
  0x6c, 0x00, 0x00, 0x00, 0x02, 0x00, 0x00, 0x00, 0xff, 0xff, 0xff, 0xff,
  0x08, 0x00, 0x00, 0x00, 0x08, 0xfe, 0xff, 0xff, 0x52, 0x00, 0x00, 0x00,
  0x73, 0x65, 0x71, 0x75, 0x65, 0x6e, 0x74, 0x69, 0x61, 0x6c, 0x5f, 0x31,
  0x2f, 0x64, 0x65, 0x6e, 0x73, 0x65, 0x5f, 0x32, 0x2f, 0x4d, 0x61, 0x74,
  0x4d, 0x75, 0x6c, 0x3b, 0x73, 0x65, 0x71, 0x75, 0x65, 0x6e, 0x74, 0x69,
  0x61, 0x6c, 0x5f, 0x31, 0x2f, 0x64, 0x65, 0x6e, 0x73, 0x65, 0x5f, 0x32,
  0x2f, 0x52, 0x65, 0x6c, 0x75, 0x3b, 0x73, 0x65, 0x71, 0x75, 0x65, 0x6e,
  0x74, 0x69, 0x61, 0x6c, 0x5f, 0x31, 0x2f, 0x64, 0x65, 0x6e, 0x73, 0x65,
  0x5f, 0x32, 0x2f, 0x42, 0x69, 0x61, 0x73, 0x41, 0x64, 0x64, 0x00, 0x00,
  0x02, 0x00, 0x00, 0x00, 0x01, 0x00, 0x00, 0x00, 0x08, 0x00, 0x00, 0x00,
  0x1a, 0xff, 0xff, 0xff, 0x00, 0x00, 0x00, 0x01, 0x10, 0x00, 0x00, 0x00,
  0x10, 0x00, 0x00, 0x00, 0x05, 0x00, 0x00, 0x00, 0x28, 0x00, 0x00, 0x00,
  0x88, 0xfe, 0xff, 0xff, 0x1b, 0x00, 0x00, 0x00, 0x73, 0x65, 0x71, 0x75,
  0x65, 0x6e, 0x74, 0x69, 0x61, 0x6c, 0x5f, 0x31, 0x2f, 0x64, 0x65, 0x6e,
  0x73, 0x65, 0x5f, 0x33, 0x2f, 0x4d, 0x61, 0x74, 0x4d, 0x75, 0x6c, 0x00,
  0x02, 0x00, 0x00, 0x00, 0x02, 0x00, 0x00, 0x00, 0x08, 0x00, 0x00, 0x00,
  0x62, 0xff, 0xff, 0xff, 0x00, 0x00, 0x00, 0x01, 0x10, 0x00, 0x00, 0x00,
  0x10, 0x00, 0x00, 0x00, 0x04, 0x00, 0x00, 0x00, 0x28, 0x00, 0x00, 0x00,
  0xd0, 0xfe, 0xff, 0xff, 0x1b, 0x00, 0x00, 0x00, 0x73, 0x65, 0x71, 0x75,
  0x65, 0x6e, 0x74, 0x69, 0x61, 0x6c, 0x5f, 0x31, 0x2f, 0x64, 0x65, 0x6e,
  0x73, 0x65, 0x5f, 0x32, 0x2f, 0x4d, 0x61, 0x74, 0x4d, 0x75, 0x6c, 0x00,
  0x02, 0x00, 0x00, 0x00, 0x08, 0x00, 0x00, 0x00, 0x14, 0x00, 0x00, 0x00,
  0xaa, 0xff, 0xff, 0xff, 0x00, 0x00, 0x00, 0x01, 0x10, 0x00, 0x00, 0x00,
  0x10, 0x00, 0x00, 0x00, 0x03, 0x00, 0x00, 0x00, 0x38, 0x00, 0x00, 0x00,
  0x18, 0xff, 0xff, 0xff, 0x2b, 0x00, 0x00, 0x00, 0x73, 0x65, 0x71, 0x75,
  0x65, 0x6e, 0x74, 0x69, 0x61, 0x6c, 0x5f, 0x31, 0x2f, 0x64, 0x65, 0x6e,
  0x73, 0x65, 0x5f, 0x32, 0x2f, 0x42, 0x69, 0x61, 0x73, 0x41, 0x64, 0x64,
  0x2f, 0x52, 0x65, 0x61, 0x64, 0x56, 0x61, 0x72, 0x69, 0x61, 0x62, 0x6c,
  0x65, 0x4f, 0x70, 0x00, 0x01, 0x00, 0x00, 0x00, 0x08, 0x00, 0x00, 0x00,
  0x00, 0x00, 0x16, 0x00, 0x18, 0x00, 0x14, 0x00, 0x00, 0x00, 0x10, 0x00,
  0x0c, 0x00, 0x08, 0x00, 0x00, 0x00, 0x00, 0x00, 0x00, 0x00, 0x07, 0x00,
  0x16, 0x00, 0x00, 0x00, 0x00, 0x00, 0x00, 0x01, 0x10, 0x00, 0x00, 0x00,
  0x10, 0x00, 0x00, 0x00, 0x02, 0x00, 0x00, 0x00, 0x38, 0x00, 0x00, 0x00,
  0x84, 0xff, 0xff, 0xff, 0x2b, 0x00, 0x00, 0x00, 0x73, 0x65, 0x71, 0x75,
  0x65, 0x6e, 0x74, 0x69, 0x61, 0x6c, 0x5f, 0x31, 0x2f, 0x64, 0x65, 0x6e,
  0x73, 0x65, 0x5f, 0x33, 0x2f, 0x42, 0x69, 0x61, 0x73, 0x41, 0x64, 0x64,
  0x2f, 0x52, 0x65, 0x61, 0x64, 0x56, 0x61, 0x72, 0x69, 0x61, 0x62, 0x6c,
  0x65, 0x4f, 0x70, 0x00, 0x01, 0x00, 0x00, 0x00, 0x02, 0x00, 0x00, 0x00,
  0x00, 0x00, 0x16, 0x00, 0x1c, 0x00, 0x18, 0x00, 0x00, 0x00, 0x14, 0x00,
  0x10, 0x00, 0x0c, 0x00, 0x00, 0x00, 0x00, 0x00, 0x08, 0x00, 0x07, 0x00,
  0x16, 0x00, 0x00, 0x00, 0x00, 0x00, 0x00, 0x01, 0x14, 0x00, 0x00, 0x00,
  0x20, 0x00, 0x00, 0x00, 0x20, 0x00, 0x00, 0x00, 0x01, 0x00, 0x00, 0x00,
  0x3c, 0x00, 0x00, 0x00, 0x02, 0x00, 0x00, 0x00, 0xff, 0xff, 0xff, 0xff,
  0x14, 0x00, 0x00, 0x00, 0x04, 0x00, 0x04, 0x00, 0x04, 0x00, 0x00, 0x00,
  0x1f, 0x00, 0x00, 0x00, 0x73, 0x65, 0x72, 0x76, 0x69, 0x6e, 0x67, 0x5f,
  0x64, 0x65, 0x66, 0x61, 0x75, 0x6c, 0x74, 0x5f, 0x64, 0x65, 0x6e, 0x73,
  0x65, 0x5f, 0x32, 0x5f, 0x69, 0x6e, 0x70, 0x75, 0x74, 0x3a, 0x30, 0x00,
  0x02, 0x00, 0x00, 0x00, 0x01, 0x00, 0x00, 0x00, 0x14, 0x00, 0x00, 0x00,
  0x02, 0x00, 0x00, 0x00, 0x20, 0x00, 0x00, 0x00, 0x04, 0x00, 0x00, 0x00,
  0xf4, 0xff, 0xff, 0xff, 0x19, 0x00, 0x00, 0x00, 0x00, 0x00, 0x00, 0x19,
  0x0c, 0x00, 0x0c, 0x00, 0x0b, 0x00, 0x00, 0x00, 0x00, 0x00, 0x04, 0x00,
  0x0c, 0x00, 0x00, 0x00, 0x09, 0x00, 0x00, 0x00, 0x00, 0x00, 0x00, 0x09
};
const int g_model_len = 2460;